000ef01c
000e0949
00181d76
000ff7a3
000b75a7
fff52bdd
00056e73
fffb5963
000bac94
fffd8267
ffe96b60
000404c2
0005814e
ffe83fac
fffe9f45
001175a9
fff9113b
fff82664
00165a0a
0002b873
000eb84e
0009e1a6
ffe786c3
001360f9
fff8ffc0
00186219
0002d641
fff6948b
00009aab
ffe77082
ffff22a0
fffa6242
0000e318
0016e571
fff6bd71
fff1e2e6
000610d8
00187e24
00186db7
000e2a02
ffec857a
00142862
000906ae
0003312c
0005a6d5
fff23ec7
00109498
fffc1e5f
0002a022
ffebc2af
00144805
00151ac3
00167e2a
ffec7c9e
fffbd248
ffebaf04
fff2896e
00164e8b
ffe9dfa6
000e7b1b
