ffee4aa3
ffe15b46
ffea52fb
fffa17e5
ffecd62a
ffe45370
0007ea16
fffa99fd
fff8c07a
ffea6759
0010503c
000aa70d
ffdf6080
fff4d562
ffdf8912
fff0c95c
0015049f
0006b1e8
ffe51bd2
001a4a22
fffd4fcf
0008ce94
0017372e
ffee2010
000367b8
0009708f
0017d8e1
ffebe471
fffe3297
000ef243
001d1ac4
fffea6f9
00128c86
fff3c6d3
00230934
001c3618
000c3c0e
fff54348
ffed1cf8
000a1612
fff24241
fffc55cc
00105ad2
001a70f1
fff76e8b
ffe92b17
001852ef
ffeaf82b
fff5d00d
0015e5a8
ffe13500
000eed76
0003ebe7
ffde39bf
fff3ae97
ffebc4c5
00173133
000aa718
00224bf1
000ae5c6
ffecf871
000788c1
00016011
ffffdb97
001509df
0012d6c0
00068caa
ffe1d1c1
ffe932b9
ffee34d7
00014b13
00208b99
001fec3b
0014beab
ffeade9e
fffed06f
fff4b96c
ffff8a0e
fff20ec7
0018389b
001bd7a7
ffde61c3
fff8b6aa
0014e234
001ecaf0
ffebce59
00089e92
ffe305f5
00091bde
0009f7a1
0017898d
ffff46c2
ffeb731d
0021c0ab
00052a4a
00074f0d
