00119c59
fff93f1e
000740a3
0002145c
000783ed
000d2863
000d0208
00090ef7
fff3904e
fff9e98f
0004f254
00049add
ffff6209
fff6420a
0010ed5f
000a05f2
0009b5a1
fff4cc70
00072a52
0001aae9
ffec920d
000483af
fff49ce4
00004fde
fffe6d62
fff6d420
fffbca03
fffac644
000f7912
fffff8f0
ffff1bf3
ffeb38d4
0002c644
ffed8a62
001125ba
000b9d2b
00073d5f
001310cf
fff48fe2
fffea22e
000e7103
000a55ee
fff9ae72
fff0e267
00077827
fff09764
ffecde61
0007f33a
0010eadf
00122043
fffad735
ffff30f2
0002cf5d
fff15113
fff7a653
00060377
ffeb6abe
000e2fcd
fffd13ac
fff148c3
fffdd4d3
00137844
ffeaff01
fff44151
fffdb0cb
fff66d69
00006139
fff4053f
0011376b
fffe981e
000ab98d
000a3ac7
0013b748
00036a3b
000e2df9
00046d3c
000da051
ffef076d
000ed7d2
00113ae4
fffef3bf
ffed4e70
0009ad0d
ffed04d2
ffed1e16
00139c2e
fffd9fe6
00136018
0002dcae
ffef6c08
fff95eca
000a068c
000730e7
fff6a8dd
fffd3a3c
fffae241
000d9315
000647c0
ffee18a8
000088b3
fff51e5a
ffff481e
0009a0e7
fff28aab
ffffa163
fff9c012
000344e9
ffecc3f5
00081bb0
fff8ca90
000da879
0010c8f6
fffa3446
0013e9b1
00007b93
fff17012
fff52599
fff76541
fff31d53
00115774
00125911
00148054
fff6745c
ffee4b99
00063089
ffee1d74
00139e99
fff2c6c3
00086ea3
0004ab87
fff55003
fffc7689
0014a8d1
ffecefa8
fffb1272
000a36f2
000f177d
fffa98d3
00007b8e
00026671
00026983
00133444
ffffecc5
000efb36
ffecd35d
fffb28ac
000cf2b8
0008db15
00003f17
fff1435a
0013930c
ffed6b3c
00138da6
0013706c
0010537f
000ec88a
fff22e15
fff94ed3
fff4f058
fffdcccd
000ae439
fffecdac
fff89046
000924a2
00129ada
000a3cdd
0003fd1a
00008d7b
00141a5b
000cdf6f
000b698f
000b0389
ffef848e
0008dae0
0007099e
000c8fb0
0010edfc
fff6761d
000a6889
0009e8c8
00131cda
ffff97e1
fff8be26
ffef4596
fff4d1b4
000ede2e
fff12372
fff6c580
0009a884
fffd542a
000201a7
fff50f11
fff24aeb
00117abc
fff569a2
001337fe
fff0ee0a
fffa4d41
fff74d26
0010e3e2
fff6817d
fffac47f
0014a250
fffdf5da
ffff7b38
fff3d915
fff20dfb
fff812ed
fff26182
0004b6d9
001421fa
00008f73
fffe7014
fff3cf47
001172f7
0001b7b9
